/**
  ******************************************************************************
  * @file    network_data_params.c
  * @author  AST Embedded Analytics Research Platform
  * @date    2025-02-10T02:43:20+0100
  * @brief   AI Tool Automatic Code Generator for Embedded NN computing
  ******************************************************************************
  * Copyright (c) 2025 STMicroelectronics.
  * All rights reserved.
  *
  * This software is licensed under terms that can be found in the LICENSE file
  * in the root directory of this software component.
  * If no LICENSE file comes with this software, it is provided AS-IS.
  ******************************************************************************
  */

#include "network_data_params.h"


/**  Activations Section  ****************************************************/
ai_handle g_network_activations_table[1 + 2] = {
  AI_HANDLE_PTR(AI_MAGIC_MARKER),
  AI_HANDLE_PTR(NULL),
  AI_HANDLE_PTR(AI_MAGIC_MARKER),
};




/**  Weights Section  ********************************************************/
AI_ALIGNED(32)
const ai_u64 s_network_weights_array_u64[2305] = {
  0x3ec2d79d3e90ff73U, 0xbe73c65ebec06395U, 0x3f9fe6023d544e7dU, 0xbea714a9bf19e719U,
  0xbf6def3c3e715bbaU, 0x3f269d203f10e57eU, 0x801cef6f802e5edfU, 0xa06b9000bea1bU,
  0x3f457739befb46f2U, 0x3e2a57c8bd9fe79aU, 0x3ed84b8cbe97a6d8U, 0x3e933cd0bef4ab93U,
  0x801fa0db8029bd46U, 0x801d544080242dabU, 0x3ef96d18bbb9371eU, 0xbe8288a7be49f63cU,
  0x4509180279824U, 0x4216a00030cf9U, 0xbf2b16e2bd3f61a5U, 0x3f3dd465bf0a3f43U,
  0xbf60d4a23e43d348U, 0x3e9536f93f4811a6U, 0x3fe25bfc3ec3bc6aU, 0xbf2cfdf23e800e44U,
  0xbf344e2d3dda56e5U, 0x3ee573363e80410aU, 0xbf6c5bca3de5540eU, 0x3efd87383ebcafceU,
  0x3f930789bd75889aU, 0xbf763cbdbe3e6f9dU, 0xbed123073d9ebc90U, 0x3e3ef1083e388776U,
  0x80180819801d2e38U, 0x802c91ed8026f511U, 0x8006b2e28019975cU, 0x800e41b480087159U,
  0x3f5dfed5bd9440daU, 0xbf98e8c23f0e481eU, 0xbedb57d13f21eea2U, 0xbd8987d63db8e433U,
  0x3ee243c1bca5466eU, 0xbeb9c8b13e4f69cbU, 0x3e90c9e2be8bf3baU, 0xbf768e2cbd8a77acU,
  0x8004fd1f80136955U, 0x80054d250007b844U, 0x8022f10b8002b9dbU, 0x80277efb80263688U,
  0xbf1b13893e1b3e84U, 0x3ec276953eb984fcU, 0x3f34cbd83e1d1293U, 0xbf09ecba3eba98efU,
  0x8019ea9780264c56U, 0x801b471f802cb60dU, 0x3e75ab59beb8ab02U, 0xbf8d45d4bdbefd67U,
  0x80127b528017d625U, 0x801f85f78019edccU, 0x3f7543873e5aa5a1U, 0xbf5b1f7dbf3c2f0cU,
  0x3f74739e3ea8ae74U, 0x3dcdf514bf7b6990U, 0x1611100147839U, 0x801650b38026caedU,
  0x3f1e5b0e3f2364d9U, 0xbee6b9debe3d4a0aU, 0x3f90bdc6be46fa8cU, 0xbe8c6744bfa4866fU,
  0xa4067fc0a467367eU, 0xa3f70e1ca3f07233U, 0xbf804d1a3b3afa17U, 0x3d3986403f1e9790U,
  0x3941e000e58baU, 0x8004be4b8003acbeU, 0xbf1abbdbbd2ccb85U, 0x3eccc46cbe3074cdU,
  0x801082508017182aU, 0x800a71a0001af9faU, 0xbe5ba83dbebf9b7eU, 0xbdc7b2df3e9a96a7U,
  0xbf1ffa673f3bdcf4U, 0x3e40c82d3e227ec6U, 0x3f526dce3ecc55fdU, 0x3f02e023bf7cf737U,
  0xbec8de36be30dcbcU, 0x3e442c363e8b3fa0U, 0xbf0ca6e43dd02e8aU, 0x3f00ff863dd3caa0U,
  0x8024ddcc80117fbcU, 0x80306ab9801d0325U, 0x8014cc618005be6eU, 0xb59c1800e995aU,
  0x3f8eb92cbdea8505U, 0xbf318646bf119400U, 0x3f2e4efabe9f2e9bU, 0xbf924eb8be9fac9fU,
  0xbeee5e2c3f35dea7U, 0x3a5d21413cf482a8U, 0xbf3f659b3dfd70cbU, 0x3e2a17d93f1d49dbU,
  0xbf61516a3e1c4fc6U, 0x3f45b08c3e68e418U, 0x179d088015cd78U, 0x1edcfa000ce84fU,
  0x3f8725ae3e464085U, 0xbf4e2971bf46c32cU, 0x3f69f791bd8a54c3U, 0xbeb0abe0bf1f55baU,
  0x801e65d180009151U, 0x801c8cb5801c9420U, 0xbf003a1a3f18dddbU, 0x3bd96284bdd5aaa7U,
  0xbf794996be622a14U, 0x3e86a81abe33918cU, 0x80210039801a9181U, 0x800cd4368016610bU,
  0x3f7ca6083ca214b8U, 0xbe9688b4bf032809U, 0x3ea1d7f7be8da967U, 0x3e3c8fd4bfbd319fU,
  0x3f26a065bd84b8b8U, 0x3cab6407bf51d23aU, 0xbece9f863ed28f47U, 0x3f0c2ae03f4067b1U,
  0x801686c7801f5e0fU, 0x8000e90f800f5735U, 0x80111c8a800d61c9U, 0x8023973a8013db94U,
  0xbdc405edbd4f3dbcU, 0x800ebcf8bdd20fd9U, 0x3d01fa35bdc50f56U, 0xbc2750a58018ea32U,
  0x3e18b6eb800950beU, 0xbee21104bda21a3bU, 0x3bf4b932bbab051cU, 0x3badcedf3c37a44aU,
  0x8006ee508001050fU, 0xbe1e7934bd56b55fU, 0x3e83a080bd8ef30fU, 0x801cb96f8000fae0U,
  0xbe32b2b9bd68c00fU, 0x3ea8631280146206U, 0x3d39351f80083d80U, 0x80050d09be0a1e43U,
  0x3e199d6fbe66f726U, 0x3dcb6deea435c6faU, 0x3dec550080096cb3U, 0x3da1a86a00003cb0U,
  0xbe6083edbe5a22d7U, 0xbcc5cf9e3c550e65U, 0x8026da408007efb6U, 0x3e891e053d6b8053U,
  0xbcc1ed67be358f97U, 0x8011ed84bd2e7981U, 0x3cce36b03cf63146U, 0xbdcb5f4f8007bd03U,
  0xf7da63e987c8aU, 0x3e9bd8c3bd6c6478U, 0xbe9e37523d61ca3dU, 0x801d3b36800952b9U,
  0x3e443eb03e046141U, 0x8029196cbe303edeU, 0xbd150e84bdd759ddU, 0x3e1d489502135ddcU,
  0xbd702f08801b1a35U, 0x3e486dbabe2e4259U, 0xbe1c6effbe04b9ffU, 0xbde8ecf93e473942U,
  0x81c017a000179646U, 0xbd7ee4513e112e35U, 0x3e12ff103d92b426U, 0x800e8abf01bf1ae7U,
  0x3e0e3e69be0d4322U, 0x3e05a39d01bac81fU, 0x3e401f5100040d50U, 0x8012c1fe3e5e768eU,
  0x3e4462bd3df3086cU, 0xbe1af23e209b134fU, 0xbde289290022a9b8U, 0xbd76ec0c000551a8U,
  0x3e3f538cbd8f6a8bU, 0xbe038d68bd8121ecU, 0x1191e8820d432eU, 0x3e3d2a573e461580U,
  0xbe15b9f3bd7f799dU, 0x8029e032be08f763U, 0x3e3e64283e49ace1U, 0xbd9c1873801a99c1U,
  0x2b166abe176049U, 0x3e3cb5163e4c4717U, 0xbe28020e3e1786e5U, 0x13a14f01b052e0U,
  0x3e440d803e072d05U, 0x801d0be4be277e09U, 0xbd22a786bdaaedaaU, 0x3e0f917f0025933cU,
  0xbd91504d00070340U, 0x3e4a5a21be2a91f7U, 0xbe2179aebe128430U, 0xbdcbb5cf3e35f0daU,
  0x183a45001dc497U, 0xbd8759403e1747ceU, 0x3e0abb063d6efd14U, 0x801f044a800d4f5bU,
  0x3e0f20fdbe1807c6U, 0x3e023d82000c50a2U, 0x3e39908c000493baU, 0x1a48f63e55202cU,
  0x3e41d3313e05418dU, 0xbe1a797c9f5f4f4aU, 0xbdfa5b58800ca140U, 0xbd77448d0014bfd3U,
  0x3e39002abd89e56eU, 0xbde99800bda303e9U, 0x801142720008c8f9U, 0x3e3000463e3860c0U,
  0xbe143cc1bd98a39cU, 0x1d8e6dbe185b3eU, 0x3e35e9923e4287dcU, 0xbd934e0580050253U,
  0x8017effdbe030bbcU, 0x3e3897cf3e39727dU, 0xbe1e5ab73e1e4734U, 0x1a5b59b00135b7aU,
  0xbe2c3668bdce3557U, 0x800093d03e827a5fU, 0xbd90f6e6bc865f6eU, 0xbe1f2b97800e8086U,
  0x3dfce849801d374bU, 0xbe1cde2f3e88063eU, 0x3e7fffd03e5cf241U, 0x3e2238f3be10e17dU,
  0xa1822800029c3U, 0x3dcac820be164f45U, 0xbe02e41fbde2c248U, 0x80312a9780174c0dU,
  0xbdfab8c73e569d54U, 0xbe0c9d5c00233d86U, 0xbe117d2f00185ad7U, 0x194c20be220a71U,
  0xbe2c4f89bd7e990aU, 0x3e81912ba1c29b67U, 0x3e20c608000a5e05U, 0x3cc78372801a6212U,
  0xbe1daa193dca95faU, 0x3e36beae3d859ab2U, 0x4c07c802b61b7U, 0xbdfe85dfbe31f2a4U,
  0x3e60d7dd3dd016c6U, 0x8013691d3e611acdU, 0xbe28f9efbe15d90eU, 0x3dcfcee7801f1de9U,
  0x311ff3e4eba28U, 0xbe1c3aa8be28349aU, 0x3e6dd31fbe106de8U, 0x80069b830021ec8dU,
  0x3e3e84ac3df90f0cU, 0x312c50be2cf308U, 0xbcf49de1bda340ffU, 0x3e104b3a0008ebffU,
  0xbd79a3530008bf44U, 0x3e321134be2f28c1U, 0xbe240beabe14c7bdU, 0xbe019ab63e33ddfaU,
  0xc564200093e01U, 0xbd5b1e693e173356U, 0x3e1527293d4c844bU, 0xd6be40030d31dU,
  0x3e045e84be1efb0bU, 0x3e0b6847801476e6U, 0x3e34ffb9801ebaf2U, 0x8011f0623e4005ccU,
  0x3e239b243dcbdee4U, 0xbe2e7dcca07c41dfU, 0xbdda943180159dcfU, 0xbd1953a980291da8U,
  0x3e3850eabd949031U, 0xbdfffc93bd976c63U, 0x8020692d8008e84eU, 0x3e23cf583e350fceU,
  0xbe23f22dbd70a087U, 0x80025e06be0d7f5bU, 0x3e38347b3e3c1cafU, 0xbda3ac5180241d56U,
  0x541a8be1adac8U, 0x3e39517e3e390a8bU, 0xbe2c60c93e12951eU, 0x81cf4ce4000d43dbU,
  0xbe304f67bdecbce7U, 0x2825913e90cea1U, 0xbd9b0a21be3c79edU, 0xbe0199ae001d75c5U,
  0x3dd12a270013a301U, 0xbe02226b3e8ebd53U, 0x3e89b3c23e6e935eU, 0x3e2d9af5be030960U,
  0x80006df18023c09eU, 0x3ddf8123be2b3d8fU, 0xbdfb5f55bdb857b8U, 0x829bb57c0018d0a1U,
  0xbdff9eb03e61c471U, 0xbdfc01d8002a896bU, 0xbe0d315980066fbeU, 0x80245bcbbe2153d6U,
  0xbe316c26bdad153dU, 0x3e8a1640a14825d9U, 0x3e25c545001ecec8U, 0x3d0c28720031dcfaU,
  0xbe2237cd3dd02d5dU, 0x3e33ddac3d781babU, 0x278a39801783f1U, 0xbe1b471ebe163aefU,
  0x3e7419d93ddc550aU, 0x8001d8c43e6193b2U, 0xbe3ee895be10fd6fU, 0x3dd3bf9e003221adU,
  0x802a0a3e3e5e6b0dU, 0xbe22c3dcbe387f40U, 0x3e7e069abe1f209bU, 0x80212f9a000cab55U,
  0x3e5248343e04932eU, 0x8026c9c3be21091eU, 0xbd748080bd9349f5U, 0x3e1a99c3800ec7deU,
  0xbd92b1cc800560e2U, 0x3e45a89dbe1991d0U, 0xbe195840bdff7efcU, 0xbdcc94173e331000U,
  0x801a7391801367f5U, 0xbd7086d43e1cca1cU, 0x3e10df6b3d773fc0U, 0x2773cb98029afb3U,
  0x3e0b5dc8be0a8f5eU, 0x3e01586f0021842bU, 0x3e3a253c0001d990U, 0x80197b253e52f101U,
  0x3e3badfc3de8f94dU, 0xbe1aff3d2223994aU, 0xbdd701500026c6e3U, 0xbd7f96ca80141975U,
  0x3e39c0bcbd6049e4U, 0xbe01977bbd90cf23U, 0x800ed47a80149411U, 0x3e298ed03e4360a4U,
  0xbe12d49dbd506ae9U, 0x80041121be051df3U, 0x3e3895933e4b4826U, 0xbd8ef6da8020d036U,
  0x80099ff7be06ce6fU, 0x3e2dc9c23e359e95U, 0xbe10a0363e188ad4U, 0x801fb0db802dd23fU,
  0xbe37b0ddbdc81ad5U, 0xe908b3e8f810fU, 0xbda175e2bc4be224U, 0xbe048d93800277b6U,
  0x3df9ea8a00323907U, 0xbe11155d3e8635aeU, 0x3e817b803e68df40U, 0x3e2a7f08be13c386U,
  0x801102a20013d080U, 0x3ddd4ccebe0b598eU, 0xbe0cb343bdc5eb57U, 0x802860ff80132fb6U,
  0xbdbfec933e5b0d56U, 0xbde5093a000eb818U, 0xbe0936ba8024e4c1U, 0x10f5ddbe2406c2U,
  0xbe1ce346bd8c8370U, 0x3e76287fa209bcd2U, 0x3e33536e80212cf9U, 0x3d042da7001b698eU,
  0xbe20adc93dbfc326U, 0x3e3b346f3d4e158fU, 0x802f914a80034dbfU, 0xbe10909dbe20bff0U,
  0x3e60befb3dbba0b5U, 0x8021fccb3e6607c8U, 0xbe2c80d9be133f1fU, 0x3dc973cf0002cef6U,
  0x800b1f983e5fc9b8U, 0xbe0d09d3be3247deU, 0x3e6bbf3cbe20580bU, 0x1c1bb97000b3091U,
  0xbe0c40d2bdcc04b2U, 0x802193903e824028U, 0xbd5cc749bb05ea8bU, 0xbdfc58d1000f1a22U,
  0x3df723b5000afefdU, 0xbdf2b8463e826d4cU, 0x3e745d7e3e5925d4U, 0x3e2d004ebe0b302eU,
  0x1553df82812c58U, 0x3db00478bdfb5152U, 0xbdfa14bdbdd88570U, 0xb801700095fa4U,
  0xbdd575193e55ae2bU, 0xbe0572b6801d31e8U, 0xbde1880801dc90b4U, 0x8015440bbe101338U,
  0xbe1165bfbda458a7U, 0x3e7820df20a1b549U, 0x3e1260c300023becU, 0x3d0cfb9a8025a5e5U,
  0xbe0d2ac53db6f778U, 0x3e2786063ce032d4U, 0x199b9f00270d34U, 0xbe11c6b7be068bf2U,
  0x3e60d6513db258f6U, 0xfe8ca3e63fb63U, 0xbe26873cbe0bb17cU, 0x3de2814d803029b4U,
  0x113c4f3e55eb6bU, 0xbe172259be109291U, 0x3e69c61ebe02a415U, 0x1be0250000dae3cU,
  0xbe35a6afbde9dd62U, 0x800e322b3e8b30ffU, 0xbd628e5abe33b8dbU, 0xbe03f70c800a288fU,
  0x3dfdb46e801d2968U, 0xbe11229d3e89912dU, 0x3e839e873e5ca038U, 0x3e1e0d35be16a893U,
  0x802b3eb3000a323fU, 0x3db6c8f2be279a55U, 0xbdda51b3bdd11bfbU, 0x1075f5801b2c82U,
  0xbde167883e5d9256U, 0xbdd168a180007a47U, 0xbe10e6de8029e013U, 0x8019ffd2be171bd0U,
  0xbe32cfafbdb6e430U, 0x3e7eef5421b1f1f1U, 0x3e1a39cd0024d791U, 0x3c9a07b2000072ffU,
  0xbe20a3293dcba81cU, 0x3e34187e3d1db2deU, 0x8000cbc68029b1c4U, 0xbe1989b8be310779U,
  0x3e6545df3dbb5d9aU, 0x20ef6f3e6b408fU, 0xbe3d4e2bbe154292U, 0x3de25c5400205baaU,
  0x801fb2623e603361U, 0xbe244535be45a3cbU, 0x3e7b8ce8be037ee9U, 0x21b11bd001bb15eU,
  0xbe205855bdccfa89U, 0x66b9a3e8c60b0U, 0xbd1c4a0abba17a76U, 0xbdff0d8400197b3eU,
  0x3df08c500001c900U, 0xbdf01e943e89a388U, 0x3e896a013e62c960U, 0x3e1732dabe13753fU,
  0x8013cb7d001b8162U, 0x3db4f748be0ffca1U, 0xbdf596cebdd0d281U, 0x9aa7a000de325U,
  0xbdf60dcb3e5e88e4U, 0xbdb061b00032a78fU, 0xbe0fcf0f000bf23fU, 0x800a410cbe13ae20U,
  0xbe1c11b0bdb57cbaU, 0x3e7b1892a0f8e2cbU, 0x3e27ea55002f30aaU, 0x3cf9726080173e61U,
  0xbe0753dd3daf42eeU, 0x3e42a5f83d4952f0U, 0xe3bad000c3dd3U, 0xbdfdd2afbe09df05U,
  0x3e63cf783dbf4445U, 0x113f63e693e58U, 0xbe3656d7be029f50U, 0x3db9674b000cc45cU,
  0x80046f323e4fd2f6U, 0xbe0dbc67be120f8cU, 0x3e6ecf5bbe144d32U, 0x143970c800159b1U,
  0x3e3f59433dffa469U, 0x12cf4bbe1844daU, 0xbd2e65b2bda98d78U, 0x3e05c878800f4bacU,
  0xbd6eab99000791adU, 0x3e4e0e41be235bf4U, 0xbe2189b5be17a3bfU, 0xbdc4ffcb3e3914b8U,
  0x8003f94100190199U, 0xbd8352693df0c569U, 0x3dfc91213d5e7307U, 0x800ea8a68002d2faU,
  0x3e001b6abe0334c6U, 0x3ddf03520022c6b1U, 0x3e309274800e9ac6U, 0x11de8e3e46d9d9U,
  0x3e3eddcb3dc95285U, 0xbe201e9aa03a00f7U, 0xbdc3c14f000ec854U, 0xbd87861180252c86U,
  0x3e3d7d32bd9a696bU, 0xbe020a35bd903282U, 0x24a3620013c2c2U, 0x3e2e47a33e2ff068U,
  0xbe0d2ec2bd96cbe5U, 0x1aaa93be0dc7a9U, 0x3e24fbb73e402ee8U, 0xbd9613ea80264e82U,
  0x14c66be0317e0U, 0x3e4025713e230457U, 0xbe1817d53e03599eU, 0x1bef814000f9a81U,
  0x3e4a6b143e011e3aU, 0x8011e161be2bebebU, 0xbccefa53bd97b4f9U, 0x3e1b0c7a0000aafcU,
  0xbd87d26b0022a4d1U, 0x3e4756fbbe3ac466U, 0xbe2b09d2be216412U, 0xbdf2b19d3e441521U,
  0x80065f570009b5dcU, 0xbd90d02b3e020970U, 0x3e1079243d85b05aU, 0xe0425801abe01U,
  0x3e0ce02dbe0ed5dcU, 0x3e121de800278053U, 0x3e3d9b75802e1083U, 0x8031f82a3e492d01U,
  0x3e3dcb773ddef264U, 0xbe1a1430a141e72eU, 0xbddb3768800f2431U, 0xbd73e3f1802956dcU,
  0x3e3eafbdbd956730U, 0xbe04d509bd87c8ebU, 0x1a5e60000f94cfU, 0x3e33f9b23e35c809U,
  0xbe1e8b3bbd97bb3fU, 0x297fedbe123852U, 0x3e3b19793e456297U, 0xbda59af40002e59fU,
  0x800217afbe15d4a6U, 0x3e44c2213e4059d6U, 0xbe226dd13e14079bU, 0x496ea8021f6d0U,
  0x3e3759a93e021bbdU, 0x8014ececbe2d6d13U, 0xbd0de2a9bd8e958bU, 0x3e07ca8201d2754cU,
  0xbd914fca0013d7a1U, 0x3e43ba94be26190aU, 0xbe133511be0c191fU, 0xbde5e5283e37ce72U,
  0x81e18e168017541bU, 0xbd8091ad3e113525U, 0x3e0db2963d93bb46U, 0x20f6c8e800c809fU,
  0x3e0582f7be0b0c57U, 0x3e08657a81a31d08U, 0x3e3c738400081ca1U, 0x8005c9df3e3d8aa8U,
  0x3e2f07c83df359fdU, 0xbe122c6722000c79U, 0xbddb92ce02183ce5U, 0xbd81c528002cbbb2U,
  0x3e3aaa0fbd8c1d2fU, 0xbdf38fcdbd962fbdU, 0x8002295a026ce719U, 0x3e426a3e3e328747U,
  0xbe0f1414bd882a42U, 0x2452dcbe04efe4U, 0x3e34497e3e4a2024U, 0xbd7c53920024669fU,
  0xb55d9be027554U, 0x3e25d36c3e2900fcU, 0xbe1288493e19bd61U, 0x80239d0e00011afeU,
  0x3e58a3173e022ff8U, 0x80005b04be29b87cU, 0xbd24da52bd8027aeU, 0x3e16c54100023348U,
  0xbd9194960011f31bU, 0x3e51d228be2c4154U, 0xbe2a9871be2409ccU, 0xbde10e523e416e96U,
  0x8017369d80218bd4U, 0xbd5b17423e0f2e56U, 0x3e0ada9c3da100aeU, 0x802b319080128f1dU,
  0x3e105723be187d6cU, 0x3e19398a0021bc32U, 0x3e29808f8005b0e0U, 0x800cbd213e4d3a2fU,
  0x3e4418683ddb1319U, 0xbe2e8ee6a0a2ce9fU, 0xbdcb5c320026bab4U, 0xbd587f3c0004c0d0U,
  0x3e3501b6bd97e210U, 0xbdf84b21bd6e0cfdU, 0x31e0d9000d3d31U, 0x3e2feb453e4243d3U,
  0xbe1daf19bd8bc41bU, 0x17c8e0be011cc3U, 0x3e4921e33e4f1ea9U, 0xbd9196a0002b0a16U,
  0x80024d50be12ad7dU, 0x3e3e882d3e48b033U, 0xbe2af75e3e1996afU, 0x190d6b0001bdca6U,
  0xbe235d8abdc3d4d4U, 0x21ba683e81086cU, 0xbd38c4a9bbb9f193U, 0xbdfb5b5d8009a4c6U,
  0x3e036e8c00286715U, 0xbe08f2ef3e7dedb7U, 0x3e766c203e5da878U, 0x3e10822cbe0e36dfU,
  0x60592002c89a4U, 0x3d8ae0e5bdff712dU, 0xbde5b09cbdc8e98bU, 0xfdc330017510fU,
  0xbdd71d4c3e5b1570U, 0xbde86bf48022925bU, 0xbe0936438020da66U, 0x800fd984be13b118U,
  0xbe201cc9bd8c0273U, 0x3e71bc271f678ccbU, 0x3e10d67480123c6cU, 0x3d3bdb918016dadeU,
  0xbe1c962f3dbfd850U, 0x3e3407cc3d82b2abU, 0x800cedd100004165U, 0xbe0298eebe1745bcU,
  0x3e5d64923dcec286U, 0x800615d93e61215fU, 0xbe2de8f5be19258eU, 0x3dc3444300013f05U,
  0x800fda363e53749eU, 0xbe0c8e5fbe194cb9U, 0x3e6f0f70bde92ee9U, 0x81c0f7ed801f0914U,
  0xbe27bbb3bdd04c92U, 0x800bafe13e8f61eeU, 0xbd8e19cebe2068aaU, 0xbe0838c9000e86f2U,
  0x3df9b32580262041U, 0xbe23b8e03e8e27a3U, 0x3e86134c3e80e06cU, 0x3e20572fbe1abecfU,
  0x802b7146802da874U, 0x3daa1ee8be1b6cffU, 0xbe03665fbdd9cb66U, 0xe25188005ba7aU,
  0xbdedf7ed3e6f0a2eU, 0xbdf3426180035065U, 0xbe0f6e0b01aba24fU, 0x302f62be2df1c3U,
  0xbe31dfafbda2b3e4U, 0x3e835347218ca1c0U, 0x3e3a7be780132995U, 0x3c3a2d34801ad0dfU,
  0xbe3769423dcdc3a7U, 0x3e3dd8103d3e274aU, 0x8011c7cc00097e83U, 0xbe14b94fbe27d286U,
  0x3e739f423dd11b85U, 0x219eae3e7d1766U, 0xbe31c7b1be271986U, 0x3dd11f80000665b5U,
  0x800544523e5565afU, 0xbe204081be34bfa6U, 0x3e7722eabe161c8aU, 0x801159d9002f71d6U,
  0x3e4106973e00b140U, 0x8007a498be356e9cU, 0xbd3a2cfabd9cae41U, 0x3e0f0fc20020da72U,
  0xbd9433b9802c076dU, 0x3e46f940be2e6ba8U, 0xbe1e0e20be16fc49U, 0xbdf1f5c83e45ee29U,
  0x155687000ae9d8U, 0xbd98e0003e062e21U, 0x3e0de3003d6526d7U, 0x8000447600276af4U,
  0x3e0e0f66be0c79a0U, 0x3df114f00016561dU, 0x3e324edd8007ed04U, 0x800812853e49f4f0U,
  0x3e4a51f23de8e74aU, 0xbe283a412149a3ecU, 0xbde3c981002b0c56U, 0xbd8eb87f001abf76U,
  0x3e3749f9bd90bfd7U, 0xbe16b0b1bd6ecaf4U, 0x8008550100034322U, 0x3e36efd33e2f2f0bU,
  0xbe211824bd6eb5eaU, 0x800b050dbe100ee5U, 0x3e3c5a083e43e574U, 0xbd8d2f7b001091d6U,
  0xc5656be1c9e70U, 0x3e3c5fde3e3a9c44U, 0xbe265b713e18f801U, 0x1ea7d89801985bdU,
  0xbe227728bdda6350U, 0x27386b3e86bc46U, 0xbd4b8b87bc9a94b4U, 0xbe027fd780021236U,
  0x3ddd0b5d001ca468U, 0xbe08107d3e7fc79eU, 0x3e7ed6c93e5e7e0aU, 0x3e1c2cccbe0e1056U,
  0x800d4ca3800871fbU, 0x3dbb1a1fbe117e99U, 0xbde3d424bdd58a40U, 0x1dc40600106c09U,
  0xbdf2c9113e53fd80U, 0xbe0a3e5c000c1edeU, 0xbdfeb921800f05abU, 0x8025780bbe0eac57U,
  0xbe0580b4bd9a9016U, 0x3e766fef20addf0eU, 0x3e211e86000cb6efU, 0x3d0de1fd80086922U,
  0xbe14eb4b3dd14119U, 0x3e292df63d3ac0ceU, 0x19e7800005a416U, 0xbe14c877be17dbe8U,
  0x3e50644a3dc2adccU, 0x13f2073e660677U, 0xbe379a14be116323U, 0x3dcc023a00054246U,
  0x800c88903e5a6714U, 0xbe194d67be18ae10U, 0x3e732a81be006a18U, 0x81d7fce50030e5a0U,
  0x3e3a40253e044b4fU, 0x800422e7be254e41U, 0xbce6790dbda507deU, 0x3e039cd98022a173U,
  0xbd41f7b1001bec73U, 0x3e4488d6be22611dU, 0xbe17b897bdf263b6U, 0xbdcd91553e2d45e2U,
  0x975fc80068c4aU, 0xbd65d9993e01dc3cU, 0x3e1027713d6e1a46U, 0x80130fbd800d7639U,
  0x3e01595bbe0b39fbU, 0x3dfdbcb28026b1dcU, 0x3e3285f000062057U, 0x800e532b3e5d69ceU,
  0x3e325b333dec4345U, 0xbe2021dd2101b314U, 0xbdb3340700039c41U, 0xbd2980ef8012eb6aU,
  0x3e474659bd8b3629U, 0xbde2c92cbdaf80a6U, 0x8005d35100030004U, 0x3e1896953e3a4027U,
  0xbe0e4ea8bd567903U, 0x801bcbcfbe032a15U, 0x3e2dc2fa3e472275U, 0xbd8ef3bf801e06e0U,
  0x80029c16be01a201U, 0x3e39be533e2b449fU, 0xbe1ed0263e0b51f8U, 0x80167514001f9e39U,
  0x3e5700a63e056755U, 0x1469abbe32a1aaU, 0xbd628379bd8bcb16U, 0x3e26d9660015b398U,
  0xbd97acbc000691ffU, 0x3e47f4eabe31aa02U, 0xbe208227be1ea691U, 0xbdd7ff163e344a24U,
  0x8011fc6b0026b66bU, 0xbd99965c3dfcc893U, 0x3e09fc583d5f211aU, 0x1671348009fbddU,
  0x3e1b3a55be19fafdU, 0x3e12bc038023de5dU, 0x3e39bb3f00045976U, 0x801c57b13e63ac87U,
  0x3e63c0c13de9ef75U, 0xbe25b51b218f3430U, 0xbdce27cb800e308dU, 0xbdacf54580204552U,
  0x3e52dfa4bda4c670U, 0xbe0bcb7cbdadfd3eU, 0x34c5000259131U, 0x3e44089e3e4d7facU,
  0xbe1ea2e4bda7ba8bU, 0x80128cbcbe07bc11U, 0x3e512adc3e59e742U, 0xbdc31d7d80087f30U,
  0x801ea23dbe0a6e2aU, 0x3e4908ad3e47caddU, 0xbe22e8883e3799bcU, 0x820744f0801a782eU,
  0xbe3881a0bdc9e852U, 0x801e4ddf3e8a2c22U, 0xbd3bcf4dbe3e212cU, 0xbe03698a00055468U,
  0x3dd297dd80295b34U, 0xbdef432d3e887a88U, 0x3e806f903e5d2538U, 0x3e2a964abe0d75bfU,
  0xf2de0001e6181U, 0x3dc9de70be135dd9U, 0xbddd09c0bddad10bU, 0x801447b780321ba7U,
  0xbddad0e33e6404cfU, 0xbdf83bb900000d5aU, 0xbe09e2ea80208625U, 0x3b0bfbe2c4fd3U,
  0xbe1c7602bd936973U, 0x3e83485fa03ec096U, 0x3e1c24ab80188d94U, 0x3b5edeb78002ac87U,
  0xbe1b9e403dd74abaU, 0x3e3a2f0e3d26cb8cU, 0x1c7d3f00121330U, 0xbdff8e3ebe20520aU,
  0x3e73734a3dcf1f73U, 0x302b063e689720U, 0xbe320ca8be127560U, 0x3ddfb2e60016a04dU,
  0x800c83273e543998U, 0xbe248b55be409031U, 0x3e75d05dbe0b7303U, 0x2038834001af6d2U,
  0x3e55ece13dfd9f22U, 0x7a11be2f0d9aU, 0xbd406d57bdb7ce81U, 0x3e20c3c200197544U,
  0xbd8f3c0b800744ecU, 0x3e4f3529be310085U, 0xbe23c562be1e5b0eU, 0xbde68fe23e4098b5U,
  0x800ed590800a1a08U, 0xbd99f94a3e1a8393U, 0x3e1b6a6b3d93f8ddU, 0x8007aa010002712fU,
  0x3e1f05a7be11d1f9U, 0x3e0eeb7c8023059fU, 0x3e3fa1dc00016d1dU, 0x800ac2723e56baf6U,
  0x3e3d4c503ddec10cU, 0xbe12c8ada1c07d66U, 0xbdca893d001e1d7eU, 0xbd6e47d0800a2b3cU,
  0x3e492944bd9c00c7U, 0xbe08abd5bd983a7bU, 0x31c3848030d874U, 0x3e3d914b3e454975U,
  0xbe1739cdbd91e9d2U, 0x8000b7cdbe06eaecU, 0x3e3df4253e47c138U, 0xbdac416d80196e7aU,
  0x19b31ebe1173fcU, 0x3e41a4a63e470d57U, 0xbe24c7913e1d1bb9U, 0x80202bfc000696cfU,
  0x3e42a5cc3df3475eU, 0x80fff7c0be440096U, 0xbcd56da8bd9c98bbU, 0x3e158b570014230aU,
  0xbd843b1b003c75f0U, 0x3e36bf84be3b20eaU, 0xbe31a48ebe20ad86U, 0xbdd226903e359c5cU,
  0x306d190020f0a8U, 0xbd9119503e0ee7b6U, 0x3e17bbf53da01037U, 0x8028b749002e5d3aU,
  0x3e0eb4e9be21a60dU, 0x3e066209010d5408U, 0x3e2f77588020202dU, 0x2386683e33805eU,
  0x3e2ec28f3dceb022U, 0xbe2db01ea08d059dU, 0xbddf277380231223U, 0xbd3bdc9780107887U,
  0x3e29c854bd933cc2U, 0xbe0e16e5bd854613U, 0x80261cae8017c4a9U, 0x3e3fdab03e30f4efU,
  0xbe289a4fbd8b2a1dU, 0xb7a20be1e1184U, 0x3e307d723e36962cU, 0xbd8e58a10032bbfcU,
  0x26b7798be1de7f1U, 0x3e312b3b3e35d47aU, 0xbe3514e83e165bbaU, 0x800edbbd800614d3U,
  0xbe358c65bdbf82aaU, 0x801320de3e8aad9cU, 0xbda59b0dbe125b86U, 0xbdfa4343000a7109U,
  0x3e0c3b49801e28c7U, 0xbdf6f26d3e84581bU, 0x3e7874c93e5d0430U, 0x3e1ce101be122803U,
  0x801d7fb88017d3ddU, 0x3dbaa8c3be1bb680U, 0xbddc0455bdf86694U, 0x80099562802543fcU,
  0xbdc5789b3e54cc95U, 0xbdd4aee780325ad5U, 0xbe00daf8801b5cd4U, 0x800ebd57be17074eU,
  0xbe1eb2a9bd853a97U, 0x3e70409221626267U, 0x3e1fb09b000cf681U, 0x3b1f7924001e28ebU,
  0xbe1952cd3dcf9ca2U, 0x3e32443a3ce8b044U, 0x800fb3218015b22cU, 0xbe0b40b0be1c11b9U,
  0x3e724ee13de18a02U, 0x24b07a3e66d73dU, 0xbe212a65be0f7980U, 0x3dc9f7a500263158U,
  0x80054c3d3e469e46U, 0xbe11af4bbe1d6d88U, 0x3e636d71be0a0e82U, 0x1e48157802cd01eU,
  0xbe216f4fbdbd3368U, 0x8011e6553e8a2183U, 0xbdd9ae27be0134aeU, 0xbdf6b3d7000b38afU,
  0x3df684ae01a02ea4U, 0xbdf34a793e8704f7U, 0x3e8406243e5aab5cU, 0x3e2d2284be0ebdeeU,
  0x2d7d10819a088bU, 0x3dc35eaebe11e888U, 0xbdc53aa5bdfbe45bU, 0x92f208021633dU,
  0xbde6340f3e6fbd90U, 0xbdddebca80027472U, 0xbdf660120027099fU, 0x1a0dcebe0b5e8dU,
  0xbe1b6196bda9d45bU, 0x3e825787220d1f66U, 0x3e251b68800425a9U, 0xbbbba5a4000b8ea1U,
  0xbe1c01363dd5b7b0U, 0x3e461343bb3afaeaU, 0x90d7d8016d7d9U, 0xbe11140abe2531fcU,
  0x3e70aa9c3daad377U, 0xa62833e5e5728U, 0xbe279874be1165d2U, 0x3dbebef880170475U,
  0x80004f493e520c17U, 0xbe092609be1743afU, 0x3e732587be006c29U, 0x1e43eef80142d8eU,
  0x3c0a6cab3b489ddfU, 0x80cdea90bbf44519U, 0xbab6f0d7bbdb0ec5U, 0x3b39629e8017eda3U,
  0xbab5bc83823cca30U, 0x3b9a0385bbc303beU, 0xbbac05e2bb65d264U, 0xbaef5d663b57785cU,
  0x85cd101203ec0U, 0xba7312813bb6afd3U, 0x3b6480b53731671aU, 0x813a4480812df720U,
  0x3b8de7d4bae771e3U, 0x3b246d0100267c72U, 0x3b9400ea001b3ef8U, 0x131f5103bf17512U,
  0x3ba6ce193a534c20U, 0xbb9f002e1f8083d4U, 0xba895c14001bc3d8U, 0xb9fff0f60275f99eU,
  0x3b56a388bb11896bU, 0xbaed81ab39aec720U, 0x5162a80125aa8U, 0x3b6e19703b74418dU,
  0xbb3247a0ba94b28aU, 0x82153b8ebbe209bdU, 0x3b9dbd7e3b7aaca0U, 0xbaa72a9d8211c220U,
  0x8120c710bba3ae2aU, 0x3aa941363b9584f7U, 0xba71b5a63b826589U, 0x204cd06801123efU,
  0x3e4495a03df72ca4U, 0x801a829abe326d5cU, 0xbd0818a3bdcc1e9cU, 0x3e0df14a80001cf2U,
  0xbd99ff0d0013ae8cU, 0x3e3b276abe2a1344U, 0xbe1cd08ebe152eb0U, 0xbdeb626c3e296d44U,
  0x801838a400093a98U, 0xbda226813e275bf7U, 0x3e0a6bb13da31467U, 0x8206e85000049915U,
  0x3e03693ebe179e36U, 0x3e0e4e3880302496U, 0x3e3ebf228004defcU, 0x8010c3a03e3a8a0cU,
  0x3e3fa8503db125b1U, 0xbe24c01aa284319aU, 0xbdde606a8028783bU, 0xbd4aab6e80049b9bU,
  0x3e33d6cebda54f27U, 0xbe0bab94bd8c2b8fU, 0x802858f6001d91e6U, 0x3e24e7433e3ee662U,
  0xbe1a6929bd9a7ec8U, 0x660f8be015b75U, 0x3e3f70283e40f6faU, 0xbd63700e0022496fU,
  0x8030217dbe2357dcU, 0x3e38943e3e335b16U, 0xbe3363a23e2378c4U, 0x23509100282775U,
  0x3e54a3ba3e003d76U, 0x8007f261be2bf28eU, 0xbd0ef7dabda0e059U, 0x3e17be17002189d1U,
  0xbd70cc11001ab7f5U, 0x3e296e50be3d6983U, 0xbe223c39be1d229eU, 0xbdeb8a933e2b5222U,
  0x8000d99b800a4c10U, 0xbd56a18d3df751afU, 0x3e0f122f3d74a10dU, 0x50475000fd09bU,
  0x3e02ebdabe085915U, 0x3defeb2300040a42U, 0x3e38b6a8800c74f4U, 0x801dd5eb3e50d6eaU,
  0x3e4d1a633de917b9U, 0xbe33c0a5a1ad943eU, 0xbdcc625e800d1f81U, 0xbd4a4e7d81fdf388U,
  0x3e4ac3d4bda27963U, 0xbe04ed11bd8c62d5U, 0x800f89e20017fdbaU, 0x3e3168ad3e352e8dU,
  0xbe1bc1c8bd9997f2U, 0x801465efbe1950bfU, 0x3e3d262f3e4a3f49U, 0xbda3717d0027391bU,
  0x1ce04abe02a1e3U, 0x3e4345f23e4e55b6U, 0xbe21e9ef3e2110c6U, 0x8152cf34002eddc0U,
  0x3e4c09db3df7054cU, 0x8013a903be311ee6U, 0xbd175bccbd868ff7U, 0x3e18b38e80164e95U,
  0xbd9ee7e6800654a4U, 0x3e47c8efbe2e868aU, 0xbe27be66be103ee6U, 0xbdec13373e2b8ed6U,
  0x1e959c001386a5U, 0xbd89228d3e114ec7U, 0x3e0a3c443d7babbfU, 0x22d15d002d5b76U,
  0x3e04132bbe152905U, 0x3e11992d800c7525U, 0x3e24ce30002e8c13U, 0x1abec3e3669caU,
  0x3e525e843dc4ccf3U, 0xbe21b4e82105bb98U, 0xbdcae00c000f63d1U, 0xbd6f9a0280007e11U,
  0x3e248431bd8a2a4cU, 0xbe0a5985bd75c79dU, 0x801907c20004c971U, 0x3e3b7b7a3e44e672U,
  0xbe1b696bbd750909U, 0x96785be08fda7U, 0x3e2e08f63e399edfU, 0xbd92761c00098616U,
  0x1623babe03f59aU, 0x3e2344a53e21e4abU, 0xbe2409513e15aab9U, 0x800efd5a8005f579U,
  0xbe34f7dcbdcb5c34U, 0x801c08353e89b3d2U, 0xbd80fa27be33b528U, 0xbde5664f000deec0U,
  0x3dba151a0017d60fU, 0xbdfaedc93e8ab185U, 0x3e805c5c3e4a314aU, 0x3e308427be03c393U,
  0xb8079801e7355U, 0x3dbf4c06be129f53U, 0xbddfc87fbdca5384U, 0x1bdc92000430a7U,
  0xbde3db033e4f85a5U, 0xbdd65fb6000171ffU, 0xbe05bcce80312683U, 0x8010618bbe153befU,
  0xbe1bd716bd8e4474U, 0x3e7714c1a0825ceaU, 0x3e134f748012bac4U, 0x3d030a6d002e23a7U,
  0xbe0ee8b03dc6c623U, 0x3e3407eb3d0eadddU, 0x121b63000688f7U, 0xbe0efdd6be220d63U,
  0x3e7144063da57e30U, 0x801bf55c3e5f303fU, 0xbe2b39ecbe0d921dU, 0x3dcb485480250aeeU,
  0x68ec03e476aaaU, 0xbe09a10dbe1ed3c0U, 0x3e7ac013be0f6927U, 0x81cfe298001c8d77U,
  0x3e3d5ae93dffabe0U, 0x8004970bbe27e646U, 0xbd3d3650bd8f75abU, 0x3e1db12d801a060cU,
  0xbd9724b50009a2a3U, 0x3e520159be27a994U, 0xbe1fd56fbe144137U, 0xbdec84eb3e2e9fc5U,
  0x80005139801d686dU, 0xbd93d5303e2d5e0cU, 0x3e1759763d78955aU, 0x16cdfe00302086U,
  0x3e025266be142e9dU, 0x3e10ab0b8031083eU, 0x3e3332ea0010c47eU, 0x801c964d3e46f10dU,
  0x3e3b8f0e3de36f29U, 0xbe1b1a3621c77a3cU, 0xbdce0c930028cb78U, 0xbd35dcad829be752U,
  0x3e44494fbd96760fU, 0xbdf019b1bd988105U, 0x8002225f8008dbe8U, 0x3e367e0f3e362dffU,
  0xbe0cbddcbd7ed0f8U, 0x802204c7bdfe4c87U, 0x3e4b54d43e4800a4U, 0xbd9c49d6000a1fe0U,
  0x802bb81ebe16452cU, 0x3e35ffe53e385693U, 0xbe0a70873e21b8eeU, 0x800c04678024859bU,
  0x3e3a4a6f3df3b622U, 0x80061404be289f5aU, 0xbcf4c8bcbda6d267U, 0x3e0ecca9002b9691U,
  0xbd94bdad801f38b9U, 0x3e3ae9cbbe2d3d45U, 0xbe1f4e7ebe0a069cU, 0xbdde944c3e37d679U,
  0x80166d61802c05b0U, 0xbd8647833e173311U, 0x3dffb2733d8e6decU, 0xee0338023ecdbU,
  0x3e0cec56be1efd5bU, 0x3e04eb4f802393a3U, 0x3e3ab920800d289aU, 0x800b34f53e455673U,
  0x3e3803e83ddf1cbbU, 0xbe2204eb215b07e5U, 0xbdc5f7798024ab64U, 0xbd7fde4e800549c1U,
  0x3e340c55bd9a3af8U, 0xbdf4d78abd9eca1cU, 0x4ab9f0007620aU, 0x3e2f48963e37190eU,
  0xbe2066bbbd880f98U, 0xa9baebe0dcc56U, 0x3e33645c3e3f12dbU, 0xbdb719918017f12fU,
  0x861b6be128912U, 0x3e3881123e399ecaU, 0xbe2150c83e247bcbU, 0x8203e738801288f6U,
  0xbe12ce51bdccee0fU, 0x225ec83e85d89fU, 0xbcd4b4ab3c9ff184U, 0xbdfd361b801a204bU,
  0x3dd5ddaf002221bdU, 0xbe031a303e6fce18U, 0x3e7b15503e53ea58U, 0x3e242ba0be082383U,
  0x800b2c78800b0f7bU, 0x3dc96608be21036dU, 0xbdddc87abdaa269dU, 0x2a1cea8019685dU,
  0xbdebb9a43e4a6944U, 0xbddc76d500081944U, 0xbdea45660028d56cU, 0x18b943be04d62fU,
  0xbe0f01e7bd74b39bU, 0x3e6368bfa1f7c0a0U, 0x3e2682ce0004506aU, 0x3d00b9dc8003ecc0U,
  0xbe0597543dd205daU, 0x3e311bdb3d2c4392U, 0x28ba41802a865cU, 0xbe1d6b65be000929U,
  0x3e50a4b73db5d9e7U, 0x17f3203e4f4a92U, 0xbe170827bde5f14dU, 0x3dc66add001fe8f9U,
  0x801764a43e4eb60fU, 0xbe0cdb2ebe142c93U, 0x3e6c4aebbe062717U, 0x11bcf200027f2e9U,
  0x3e418a5b3e00f4d3U, 0xea3fbe2b5ea2U, 0xbd3da664bdad22d5U, 0x3e135adb0014c0ebU,
  0xbd53cf980016064cU, 0x3e51ad6bbe2e58f1U, 0xbe10af53be10d9e0U, 0xbdd6083a3e39b6c7U,
  0x184b04000c2783U, 0xbd8f17df3e13ba61U, 0x3e122c1d3d82f7caU, 0x25ce98000eba35U,
  0x3e0479f8be07afe1U, 0x3e175e2580184525U, 0x3e347162000086f5U, 0x800db21d3e49633fU,
  0x3e3f68a13de8f950U, 0xbe267a2921a64b19U, 0xbdd03f27800544feU, 0xbd89805c0029a021U,
  0x3e464921bd7bc337U, 0xbdf79b17bd55965cU, 0x182940001acd04U, 0x3e3958963e3b3939U,
  0xbe1e249cbd83daeaU, 0x8008ed9bbe19b317U, 0x3e31b6ae3e48ad04U, 0xbd91c943801214c6U,
  0x801a619bbe0493efU, 0x3e3e95973e3ba791U, 0xbe1df12f3e29f5e3U, 0x80ea02e8001023e3U,
  0x3e524b103e08e25fU, 0x203de6be2a4dcbU, 0xbd431032bd79d19bU, 0x3e18a8cc001f36b2U,
  0xbd8d0eac80176045U, 0x3e59efd5be2cdd4eU, 0xbe21694cbe19b6b2U, 0xbde1f0273e47d065U,
  0x8008bd70001fb53dU, 0xbd9789e83e1c6ba3U, 0x3e2064873d81eecdU, 0x802b5cc88008614eU,
  0x3e26747abe1be3eeU, 0x3e1751c58020197cU, 0x3e3d36de80124879U, 0x1bfe5b3e4d0445U,
  0x3e47f1da3df499aaU, 0xbe2b014922092dcaU, 0xbdc4f8be80268a2eU, 0xbd75634280207ff7U,
  0x3e39e1e7bd97f0c8U, 0xbe00eb3cbd9d0437U, 0x1ccd7a8004d18aU, 0x3e4fb4223e52d37aU,
  0xbe12f7a5bd8bfd83U, 0xd58e0be092506U, 0x3e44419f3e534fd0U, 0xbd9dc89280320e80U,
  0x14a73dbe071d33U, 0x3e471ef23e4b3533U, 0xbe292ca23e1f8764U, 0x801a25c780116b3dU,
  0xbe241072bdd520ccU, 0xdd3e73e90bae0U, 0xbd3e5314be449060U, 0xbe067e51000fba3fU,
  0x3de832d1000a7c5dU, 0xbe003acc3e8d0ff6U, 0x3e8e1edd3e649862U, 0x3e231639be0c4d37U,
  0x504160199508dU, 0x3dd58d27be1f1398U, 0xbdec4089bde670bdU, 0x80064088800ea292U,
  0xbdec126a3e6b4db3U, 0xbdd4cea28000acd4U, 0xbe0c255100172359U, 0xca77bbe21ff38U,
  0xbe26c8a4bd8581b6U, 0x3e79b66a21880f6fU, 0x3e3a936b0012649fU, 0x3cae03aa8002e4abU,
  0xbe1aa0303dc19059U, 0x3e45b3493d11c562U, 0x19de35800963a6U, 0xbe0820efbe2249d9U,
  0x3e67f9323dccafd6U, 0x8000d87c3e755551U, 0xbe27e05fbe0a6e35U, 0x3db89dac001ecdd7U,
  0x802342b73e5918a0U, 0xbe1796b0be2aa88cU, 0x3e7838f5be143495U, 0x1ce57f3801189c6U,
  0xbe2c2fedbdd24fc6U, 0x80074e5c3e913ca5U, 0xbd9b206ebe403f96U, 0xbe060c75000bb58dU,
  0x3ddec9a280115bf5U, 0xbe0232c73e88f9b9U, 0x3e86a03f3e6576c4U, 0x3e31354cbe1dae8dU,
  0x8002cd17801b201aU, 0x3daadf68be2a12d4U, 0xbded0e60bdffcbe4U, 0x2c5f48000da0bU,
  0xbddd261a3e756b97U, 0xbdfca4f5000910d7U, 0xbe06c035801bc8f7U, 0x574d8be224bcaU,
  0xbe188fb2bda3dc12U, 0x3e800a82a054571cU, 0x3e1b96f400172a5cU, 0xbb781c418016c29cU,
  0xbe1979303dedb007U, 0x3e394bd93c8c20a9U, 0x18d2f080095e80U, 0xbe09532bbe23fb57U,
  0x3e7ee2e93dd37a6cU, 0x2add13e6f516eU, 0xbe2f6c6ebe169310U, 0x3dcf986780026995U,
  0x18516d3e6e7389U, 0xbe149b27be1db873U, 0x3e719003be0ee831U, 0x8003ec978021ceadU,
  0x3e34101d3df1a969U, 0x19271be330ba6U, 0xbcdfb0c8bdc3b1bbU, 0x3e0919750020af3bU,
  0xbd8b9707000bbb10U, 0x3e2a1829be2d9099U, 0xbe234807be1d57d7U, 0xbddbcb973e2a07c1U,
  0xbcd2000efecfU, 0xbd8a766b3e156684U, 0x3e124c193da6e5c0U, 0x80022e85800d7f7fU,
  0x3e117dacbe0e36daU, 0x3e01c3f6801c54b9U, 0x3e288f938004c7deU, 0xf2a73e438bb2U,
  0x3e2a75823dc7a4a1U, 0xbe1f8ce321e81d53U, 0xbddef12d001d8af9U, 0xbd5fd4578022adf4U,
  0x3e367f3abd8ef469U, 0xbde758d4bd674d77U, 0x8030b02e8011ff8bU, 0x3e298be43e358379U,
  0xbe1006adbd7416ecU, 0x27bebbe07ac91U, 0x3e408d033e3a445cU, 0xbd966caa000b865dU,
  0x1dfb88be1adbebU, 0x3e3e072a3e3b2121U, 0xbe217b4b3e1cdbd4U, 0x132718801d57e6U,
  0xbe2380eebda2439fU, 0x10bec83e835167U, 0xbc96b4f1bc7f167cU, 0xbe0b0e0f00045780U,
  0x3de737430006b2e9U, 0xbdfd6cfc3e80e14cU, 0x3e7021633e5707ebU, 0x3e1a44cbbe0a407cU,
  0x2232f480193d3fU, 0x3dc29802be151514U, 0xbdfd43a5bdd588eaU, 0x1865fc001c4380U,
  0xbddbed5a3e53a57dU, 0xbdfaffcf8020a41dU, 0xbddc2d148022d6e6U, 0x17b84dbe0bdfadU,
  0xbe22d257bd61a6ffU, 0x3e664f3da1626284U, 0x3e1d1c6e002c9515U, 0x3cfa6cb3002097d4U,
  0xbe07d8553dc14374U, 0x3e3b989c3ccabb85U, 0xd6b59001ed4d4U, 0xbe187982be2889efU,
  0x3e5d3a323dc2016fU, 0x8005249a3e522b79U, 0xbe2b1177bdefe1d1U, 0x3dad1f7a802022a3U,
  0x110b603e3ed266U, 0xbe0e8020be16fa0bU, 0x3e5fbc8abe1722daU, 0x81b2779f802bb718U,
  0xbe20a30abde888e7U, 0x8282a3e8fb781U, 0xbcc682c1bc206c01U, 0xbe0ad2e68030e167U,
  0x3dd8665f80095e98U, 0xbe0c13373e82f021U, 0x3e826f9c3e5f1b30U, 0x3e1ccf19be103a40U,
  0x8007972200074557U, 0x3db43b65be1ca60bU, 0xbe06eb81bde88775U, 0xe9d2e800167f4dU,
  0xbde792eb3e5c3e44U, 0xbdd44a2a000cb5f6U, 0xbdf2e08c802836cfU, 0x800b4078be1ee901U,
  0xbe215918bd8a0544U, 0x3e766b6820e297f0U, 0x3e2c43118026fc4bU, 0x3d2695e0001ae713U,
  0xbe0ef2dc3dd17122U, 0x3e332bb23d56108aU, 0x6844a00215709U, 0xbe0e68b4be11358fU,
  0x3e659e583daec64aU, 0x11473f3e55968bU, 0xbe212219be180ba4U, 0x3dc61b9d001fea1dU,
  0x8004b23f3e500302U, 0xbe0d2f97be2ad6b7U, 0x3e65373bbe08e1b1U, 0x81a7f31d000357d5U,
  0xbe1dd17fbdb227e6U, 0x801fcad03e8a1e90U, 0xbd4bafed3c83df59U, 0xbe14e7208000477eU,
  0x3dea05f380156b1cU, 0xbdef71863e80b118U, 0x3e83c0bc3e5a38d0U, 0x3e2a25eebe06cd54U,
  0x2a08c3000f2677U, 0x3dbf757cbe0f0903U, 0xbdeebd5ebdd64dc9U, 0x80177e010016d417U,
  0xbde416ee3e602b48U, 0xbe05e45100197791U, 0xbdfc8799000a242bU, 0x6283dbe123f2dU,
  0xbe166f07bd7ef300U, 0x3e67fbd621b3427cU, 0x3e2e8fd18000f885U, 0x3cf6c976002597d1U,
  0xbe0b9f843ddbc974U, 0x3e3657da3d68c13eU, 0x800b583b800b23d8U, 0xbe183531be165588U,
  0x3e5e57b53dd55de4U, 0xe585d3e6256a1U, 0xbe3044cfbe0df9bcU, 0x3daf2887000c4625U,
  0x2239133e58075bU, 0xbdffa15abe23be8eU, 0x3e638f57be01443fU, 0x28193188024f459U,
  0xbe189cd3bda342c6U, 0x15ecfa3e85cb77U, 0xbd90117dbcb898efU, 0xbde8760e00142739U,
  0x3dcbd87580069a05U, 0xbdf7bb113e83bedaU, 0x3e7f88223e4c2b27U, 0x3e23d0c5bdfdc2d5U,
  0x1329ea000e841bU, 0x3dcb0bc2be015540U, 0xbdacb14bbddb92deU, 0x8029d210000c7406U,
  0xbdb058ad3e60dcc0U, 0xbde8be418005425cU, 0xbdd21e90800f3f93U, 0x8003906bbdf16d9eU,
  0xbe1fdcedbd927becU, 0x3e7c3744a1881800U, 0x3e1cf32e0021cd96U, 0x3c9e9cc600057daaU,
  0xbe10d4633dda98a3U, 0x3e2b46d93cbee816U, 0x15448780139e9dU, 0xbe09648cbe1d8463U,
  0x3e5f8a323db10822U, 0x2a29583e56aa52U, 0xbe19f518bdf0c490U, 0x3dc72d88800542a6U,
  0x801f1a253e4147a7U, 0xbe072eb2be1b2a07U, 0x3e6a53afbe07e750U, 0x11164cc802d2d23U,
  0xbe3a3690bdf0f577U, 0x2ca0f83e966164U, 0xbdbc539dbddc6039U, 0xbe0d2be500014e39U,
  0x3e01fa5a800027f7U, 0xbe0f2ee03e8df8d4U, 0x3e86cd6a3e594e78U, 0x3e305e1abe227bc8U,
  0x800a6fd80021cb7dU, 0x3dbfcdc8be19c248U, 0xbdf5ae48bdc2c406U, 0x4e96c00085e9bU,
  0xbdfd282d3e5c1551U, 0xbdf5c5e70016fe3dU, 0xbe10b83b8005cee6U, 0x10dd70be2b68faU,
  0xbe2823d7bdba438bU, 0x3e80dabb22330869U, 0x3e203458802260c2U, 0x3d3f73998006bbf2U,
  0xbe290ba43dc10559U, 0x3e3640cf3d5d9adeU, 0x1b31ed00204c23U, 0xbe1f7d0bbe30b298U,
  0x3e7b137b3dc70747U, 0x9c5a33e6fe8c5U, 0xbe4ee217be1e2216U, 0x3dca265a00205468U,
  0xce9f03e5e7915U, 0xbe13c348be3d2968U, 0x3e7dff25be09d625U, 0x231458800ed8a7U,
  0x3e39c0cb3e1670b2U, 0xac63abe274a7fU, 0xbcf09955bd97788eU, 0x3e2377e1801b42bfU,
  0xbd6a91b4800a7f43U, 0x3e436ab1be36c9a2U, 0xbe2418d1be0bb701U, 0xbddf54673e50a91fU,
  0x8012daed802b2dd9U, 0xbd8587013e158ba9U, 0x3e1884853d854395U, 0x27037f002fb695U,
  0x3e17ae86be1a8f75U, 0x3e1f11440027053cU, 0x3e4c931680001f56U, 0x1b01a3e5574a2U,
  0x3e5704303ddfc413U, 0xbe25ca40a0039d4dU, 0xbdcf087e0015ef71U, 0xbd9359180003a1caU,
  0x3e407336bda38be0U, 0xbe02b622bd8f7dbdU, 0x16c50700073a8cU, 0x3e39d32a3e47159eU,
  0xbe1772ddbd8c5f6fU, 0x32bec5be18711cU, 0x3e48a82b3e50d1ceU, 0xbd85173780252a50U,
  0x800091b0be0a47d6U, 0x3e4306e63e3a68e9U, 0xbe23dc8a3e14aa68U, 0x18f1360000eecc3U,
  0xbe2fbcf3bde216e0U, 0x8005eaf53e891b8bU, 0xbda5f717be20f1d3U, 0xbe1440c0800ada80U,
  0x3dd99335001b1483U, 0xbe15ca5e3e88ef87U, 0x3e6e5d823e5f33a5U, 0x3e1c6e3dbe0febbaU,
  0xab628002cb6a8U, 0x3db31a1dbe2b2ce8U, 0xbdffdd3abdfdb58cU, 0x715d38015efb8U,
  0xbde6101f3e58eeddU, 0xbe037368802bc7ccU, 0xbe14578c002b3261U, 0x802675f1be279d17U,
  0xbe3caa7ebdd26b20U, 0x3e7ede86223ca02cU, 0x3e2126ca802d1bb6U, 0x3cd462628001f449U,
  0xbe1d79653de1a2baU, 0x3e36565e3d184c7eU, 0x2916de0022ebd7U, 0xbe1ff6ccbe245765U,
  0x3e71c4b03dca6040U, 0x8011ca3f3e62fae5U, 0xbe36dfe2be09af78U, 0x3dded39b800f0242U,
  0x800369c93e52c5a8U, 0xbe1dcf17be423a95U, 0x3e703b1dbe104adeU, 0x181b520001f981bU,
  0xbe1900f2bdcd08d8U, 0x80156e9e3e8a87d8U, 0xbd369764bd78e841U, 0xbe00535f00063d3aU,
  0x3decd5fc8003ef31U, 0xbe065a213e88aaeeU, 0x3e80beeb3e5098d6U, 0x3e2a57d0be0938d0U,
  0x32535d800f4e58U, 0x3db88200be1a257bU, 0xbdc75622bdf5db9eU, 0x802a07ba0001311aU,
  0xbdded5b03e641181U, 0xbdeb912d801f9967U, 0xbe010f1901d559d8U, 0x13d1cbe0751b7U,
  0xbe219269bd8ee835U, 0x3e80deec223115bfU, 0x3e15962f002c26deU, 0x3ca902bd8032560aU,
  0xbe0dff6e3dd2e26cU, 0x3e32968f3ce8fb47U, 0x13b3af002401bbU, 0xbe0aa1f4be10debfU,
  0x3e5f8be23db55d55U, 0x8011a4643e610321U, 0xbe2fa40bbe032d63U, 0x3dc0de800020f08cU,
  0x802d21873e460690U, 0xbe0d3568be18b03dU, 0x3e5e86efbe08529dU, 0x82773ce48020488bU,
  0x3e4ee57b3e0ed546U, 0x13ff5ebe262befU, 0xbd634e19bd93f75dU, 0x3e130b4c80109ac3U,
  0xbd6add858024e1e0U, 0x3e285878be278d75U, 0xbe1f8b84be02ecc4U, 0xbdb72baa3e2e9cfbU,
  0x1be56c8018a1eaU, 0xbd97d58b3e0fa29cU, 0x3e10eca93da162a4U, 0x2d28a700201f8aU,
  0x3e09128abe047938U, 0x3e12be0480156ab7U, 0x3e4989d4801218deU, 0x338c43e4e8ea3U,
  0x3e488d433ddcf777U, 0xbe24f1bda19c545cU, 0xbdce9b15002a7cfbU, 0xbd73b38f002d8b7bU,
  0x3e5055fbbd9b9ff2U, 0xbdfa6c4fbda574a6U, 0x8020ad8c002aec05U, 0x3e17aede3e4daa0aU,
  0xbe0d6fbebd9330e7U, 0x801ad525be051a7cU, 0x3e33af783e4e117fU, 0xbd991112000a4fa4U,
  0x80156e09be13a4b0U, 0x3e3e7d863e335494U, 0xbe0d32e13e125df1U, 0x1e7bc65000bc6b8U,
  0xbe14121ebdc36bc5U, 0x9b1343e90a991U, 0xbdcd5889bdc2f0f2U, 0xbdfcb6a38005fa3eU,
  0x3de478fc0012fae0U, 0xbe01b3513e839229U, 0x3e8114a83e682ec7U, 0x3e244e14bdf6b85fU,
  0x80161e5a801c5889U, 0x3dc882f4be33162cU, 0xbdf91309bdf145f8U, 0x12e4f6800167aaU,
  0xbdd3010f3e61ea42U, 0xbde4212e8022d150U, 0xbe0194e700167a34U, 0x8008580cbe11f6b3U,
  0xbe21b474bd6ad0fbU, 0x3e75a100a2460e88U, 0x3e22a657801d3d3fU, 0x3c21c92e802f5c5aU,
  0xbe0e6ba93de443bcU, 0x3e3e0e6b3ca1300fU, 0x2452338027aa49U, 0xbe0c6766be17c6a1U,
  0x3e6830c43dc6ac5bU, 0x13f7bb3e6a7fe1U, 0xbe1e044abe029b93U, 0x3dab3c20000e5f9eU,
  0x818d2de83e515fb9U, 0xbe118887be1df6daU, 0x3e7300f0be099ca8U, 0x8002ac3d000ac3a6U,
  0xbe2dc7a9bdc0d574U, 0x208b303e8dac60U, 0xbe28fb78bd8e0091U, 0xbdf61264000865ffU,
  0x3e0b473681ad032eU, 0xbdfcbc023e89c943U, 0x3e8a28153e78ddcaU, 0x3e351f6cbdfd3651U,
  0x8006bb21800d3dddU, 0x3da9874fbe1bccbfU, 0xbdbd5087bdee5bc0U, 0x17d3ae001da1fbU,
  0xbddfa8563e74657dU, 0xbdf95485801d5203U, 0xbe0092e1002163cfU, 0x801927bdbe1a2f6bU,
  0xbe19d594bd965b2aU, 0x3e72f6cb2204060cU, 0x3e24607d801fd0edU, 0x3ba7b944000fcba4U,
  0xbe1343843dceab66U, 0x3e3df5313c93b25bU, 0x1dbb9f000b8a09U, 0xbe18de21be205217U,
  0x3e6d17013dbabcb9U, 0x800b88563e72d7ccU, 0xbe2f96b9be0d8976U, 0x3dc51a5e000d02f9U,
  0x801be24d3e58c73dU, 0xbe075ecfbe16750cU, 0x3e6cb1f3be0a0a87U, 0x4af06802172d7U,
  0xbe4036bcbde1426eU, 0x802ef7c83e93c8ccU, 0xbdad7715be0a3c11U, 0xbe02053d00072a2aU,
  0x3e014838000dd7b7U, 0xbe0936033e8e9c71U, 0x3e8f55a83e68bb64U, 0x3e1d785bbe2480d8U,
  0x801e14eb81633c40U, 0x3daf3346be15a456U, 0xbdf03e97bdce3397U, 0x80282963001324c3U,
  0xbde139363e631957U, 0xbe03298c00241ab7U, 0xbe061ebc001340ecU, 0x4fb61be1c5c45U,
  0xbe31db29bdb08d50U, 0x3e87f13921d6a4e8U, 0x3e2f1deb801b8342U, 0x3d115fe10026f85bU,
  0xbe1b9ef83dbeae95U, 0x3e3984103c8df99fU, 0x5e11f0009afd4U, 0xbe203080be2e1921U,
  0x3e79cfe53db6ff23U, 0x803286e83e7a5a82U, 0xbe3712e0be28bbbbU, 0x3dcb463880207e0dU,
  0x61ef43e53a224U, 0xbe066842be2ac8cfU, 0x3e6f1e6fbe16aab8U, 0x801c83358010edc5U,
  0xbe376e89bde20e91U, 0x802ea5bc3e946519U, 0xbd84bd5dbe335a01U, 0xbe01679a800c50f2U,
  0x3df23859800ea3e1U, 0xbe08e8413e8a0db3U, 0x3e8150d13e6cdc28U, 0x3e29160dbe13d414U,
  0x800f87e3801c2cdaU, 0x3de0c895be2cd79dU, 0xbde9b1ebbdf76ed9U, 0x800eb7ea8008034bU,
  0xbe0646f83e723854U, 0xbde863ca8023ccfdU, 0xbe03f8d280051513U, 0x800ff92dbe234f8cU,
  0xbe26fa13bdb07d16U, 0x3e7726bba0508544U, 0x3e337437001f21bcU, 0x3cbe5a2f000691edU,
  0xbe1b56d83ddbf47dU, 0x3e40d0133d47ed44U, 0x18cea70017f1c8U, 0xbe17362fbe275f76U,
  0x3e6be8813dbd53b0U, 0x8000c1403e7889feU, 0xbe38f46fbe29c7e1U, 0x3ddaa96580029053U,
  0x800608063e5574a6U, 0xbe21d5d9be39ce76U, 0x3e6ee50cbe171ec3U, 0x827eefb4001b5856U,
  0x3e4770153dfd7bceU, 0x1a489be2127f2U, 0xbd66d2debd999232U, 0x3e0f19238016038fU,
  0xbd57aa99000082b2U, 0x3e3fb5ebbe34f216U, 0xbe1d04fbbe0a9ec6U, 0xbdcfa19e3e318007U,
  0x8019f895802b8e55U, 0xbd9495393e03011cU, 0x3dfbc1be3d4b720cU, 0x800b236b80010415U,
  0x3e0569d2be0a2627U, 0x3de7fbbd800f91a8U, 0x3e2b89e1802a4190U, 0x8bbfd3e4536faU,
  0x3e40f7503dbddc75U, 0xbe16fb80a23738c0U, 0xbdb8a4ee8019e4fcU, 0xbd8bcaa380531040U,
  0x3e3e3d6bbda4335fU, 0xbde4c6babd914d9bU, 0x8009832a8029c800U, 0x3e296c553e369e47U,
  0xbe195ca5bd83ab00U, 0x1f4480bdfbc3cfU, 0x3e3c48843e40f813U, 0xbd8f7e118021e797U,
  0x8001120dbe03e049U, 0x3e4921533e48bc98U, 0xbe159aec3e2be32cU, 0x2a26bfb0011e240U,
  0x3e373b2e3dfd300fU, 0x801e2a40be2ccafbU, 0xbd02cb94bda92644U, 0x3e0b9b9d00211653U,
  0xbd8c4b2580082b9cU, 0x3e44ee09be36b413U, 0xbe267ed0be1006ebU, 0xbdd072513e2cd643U,
  0x80240ba1000954b7U, 0xbda7ddc93e2664c7U, 0x3e09bede3d796080U, 0x13d0c5001de2eeU,
  0x3e094b13be1e8c85U, 0x3e03b81280020cb2U, 0x3e43ed8f800f0a55U, 0x4c4253e4e1a57U,
  0x3e2f1bf63dcc3221U, 0xbe1a25eda1c4d7d9U, 0xbdf144c6001642f6U, 0xbd449ded0001bd1eU,
  0x3e4425a3bd9c11eaU, 0xbdfad5fabd84135fU, 0x112113802a89deU, 0x3e41a7c43e45066eU,
  0xbe1ebc39bd99137dU, 0x2ab261be05386dU, 0x3e3675963e4a2729U, 0xbdbbb8a98029fd3fU,
  0x80144f57be0d7c4fU, 0x3e3b33a43e414754U, 0xbe2790433e135d4cU, 0x26915fc80293baaU,
  0xbe2de874bdcdff8eU, 0x29889d3e8817ceU, 0xbd35663abd9b48e6U, 0xbe0686bf800490ddU,
  0x3dd9b91400175271U, 0xbe0a8cdf3e8dbc8dU, 0x3e81e05a3e5c7ce6U, 0x3e1e04e3be1af2f2U,
  0x22bfa8801d5f96U, 0x3dc3e840be12e66dU, 0xbdef4290bdcec524U, 0x800bf21b801fb61eU,
  0xbdc976913e571478U, 0xbdf02dbd0004270bU, 0xbe064a4f001376bbU, 0x308a58be12f7e3U,
  0xbe2f060bbd9b60c9U, 0x3e6c0625a297157dU, 0x3e178d9b80171320U, 0x3d583bce013fc29cU,
  0xbe1286173dd56c52U, 0x3e2ead973d67307eU, 0x2cdae68003cb92U, 0xbe037f6bbe235796U,
  0x3e5a45d63dc89088U, 0x1de863e4a6498U, 0xbe386b56be08368cU, 0x3dd1eabe81a1daf4U,
  0x800eb5db3e5611b3U, 0xbe106919be35413fU, 0x3e6ecc80be14582fU, 0x829ee7f600180c16U,
  0x3e4ad68d3ded6d7fU, 0x802703e7be31801fU, 0xbd8a780abdaf162cU, 0x3e19029480250f26U,
  0xbd89bbad001640fbU, 0x3e495aa8be2b285bU, 0xbe1d0feebe108a48U, 0xbddfc4563e3c068dU,
  0x80100516002242c5U, 0xbd9a76333e1c42afU, 0x3e14303e3d7f5b69U, 0x8018bfc1802b41d4U,
  0x3e1f8fd8be0d1726U, 0x3e0c52d8002b67cbU, 0x3e3bd1a5801a3765U, 0x8004cfe63e505ed5U,
  0x3e48d8303dfd50e9U, 0xbe22271a218b614eU, 0xbde159e300066794U, 0xbd9caeb380063eb9U,
  0x3e436887bd707e98U, 0xbdf4c3a5bdabee73U, 0x800892ad00283092U, 0x3e425c173e4b7a63U,
  0xbe1aa10dbd776601U, 0x12b347be08d98fU, 0x3e3ee0153e4a120aU, 0xbda34902000d422fU,
  0x801f0cb5be127618U, 0x3e3590b13e3dd90aU, 0xbe1a20a73e1f5076U, 0x1c6461b0005d6afU,
  0xbe2de7f7bdbe7ee1U, 0x80021f953e806364U, 0xbd59b4813c0c5777U, 0xbe02609f802861e9U,
  0x3dde3dc4002957e7U, 0xbe0a8cd73e793485U, 0x3e63be303e46b669U, 0x3e14833abe0dd770U,
  0x802eb8e60000811cU, 0x3dc9f072be062c68U, 0xbdf26880bdb3506fU, 0x8026ad22801f6dc2U,
  0xbde4df163e496e79U, 0xbded3cbe000ea110U, 0xbdf2906800066100U, 0x801513c6be0a04faU,
  0xbe024a7dbd8ec07eU, 0x3e638bf221b80892U, 0x3e21f25380027c90U, 0x3d51d5070023fc20U,
  0xbe0c48bb3dd0ae8fU, 0x3e28161f3d294a75U, 0x18cd420012e070U, 0xbe1a9df8be150df1U,
  0x3e521f993db3fa98U, 0x801cfd1a3e4e486aU, 0xbe17fb09bdee087eU, 0x3dc865c40024d462U,
  0x8000b8313e53aea4U, 0xbe1a2d71be0d0c5dU, 0x3e5ebe79be00439cU, 0x291904001c90b6U,
  0xbe18d29fbdd8054fU, 0x12db8d3e8263fcU, 0xbccfe2c1bc133d47U, 0xbe037785800f0225U,
  0x3dc26a35001da242U, 0xbe03479d3e81faddU, 0x3e6ee0823e5948f1U, 0x3e191cdcbe0e2261U,
  0xcd9d80313575U, 0x3daf629bbe0b14b5U, 0xbdedca7ebda5c53aU, 0x2abdc20007b365U,
  0xbdf8a15a3e4c5eb9U, 0xbde8c840800a4a18U, 0xbe0b7b1e001bdbdaU, 0x8012fff5be157becU,
  0xbe132ebdbda559d0U, 0x3e7105daa172e6b2U, 0x3e1d41ae00216d01U, 0x3d4603fb802b0b27U,
  0xbe169fab3dbd386fU, 0x3e39399f3d787f69U, 0x8015c7520021f5e7U, 0xbdf4b077be1e10efU,
  0x3e5c4d813dacbbbbU, 0x8032eba13e5361b5U, 0xbe1e7abebe03f70cU, 0x3dcc7b9300217c47U,
  0x8001fe883e614fccU, 0xbe0efa76be1def90U, 0x3e6aa234be05a262U, 0x22521b180265886U,
  0x3e4861e23df61cd9U, 0x2ef74bbe2fca7aU, 0xbc9c315dbd996181U, 0x3e1bb6f68000bba5U,
  0xbdab892500252282U, 0x3e31ab5fbe34785dU, 0xbe24336abe1a0093U, 0xbdee3a323e2ff59bU,
  0x1719fa801bfb65U, 0xbd4e75f83e1649ffU, 0x3e132dba3d9b33b8U, 0x8017f8a2800c155cU,
  0x3e0db214be276f7bU, 0x3e122bf0000afaecU, 0x3e2c2e3e00092d25U, 0x800a0f8e3e35b4c7U,
  0x3e3cf9933ddff823U, 0xbe237f60221908ceU, 0xbddb08c5801930adU, 0xbd54d3d6815cfbc0U,
  0x3e30e4c2bda3b8bcU, 0xbe135851bd89f00aU, 0x80003dae80314567U, 0x3e3154733e4067d2U,
  0xbe178620bd81475cU, 0xb5bc2be199b36U, 0x3e37299e3e401b53U, 0xbd932a0081bf8408U,
  0x6deeabe26dab6U, 0x3e21d5d73e351bfbU, 0xbe288ade3e0fbf19U, 0x800c5ce0000e7d06U,
  0x3e4311f13de8bca5U, 0x808978e8be1c11abU, 0xbd3e8299bd92a820U, 0x3e0c503581c0b9c8U,
  0xbd933c4601d8db26U, 0x3e435a6abe2bdb81U, 0xbe103091be0f14abU, 0xbdcb9fd83e321472U,
  0xa512c80dcc570U, 0xbd7eda203dfcd5b0U, 0x3def8d003d75df82U, 0x207c11481b7d41cU,
  0x3e025a7cbe113575U, 0x3e0ae084800ac6f0U, 0x3e2305e380280d68U, 0x14936c03e29af31U,
  0x3e37f1d03dc68248U, 0xbe0fc78b20865c5eU, 0xbdac9a82800ef7e9U, 0xbd538b99802db158U,
  0x3e235f95bd82061cU, 0xbdf43273bd53d93dU, 0x15fa600800d5c19U, 0x3e2816733e2a911aU,
  0xbe03b508bd83a1f4U, 0x2c8a2dabe052373U, 0x3e369a483e315481U, 0xbd64ea9b01ba7680U,
  0x19f234abe0467acU, 0x3e3fba2a3e39a934U, 0xbe1421b53e1347cfU, 0x8008d41e00265d12U,
  0x3e5093593e057948U, 0x14d7ebbe303b20U, 0xbd2d98c6bda334c9U, 0x3e1cf6f500037eb0U,
  0xbd8a34ed002449ebU, 0x3e458635be363160U, 0xbe2b4b54be275eabU, 0xbdf4c07f3e33acf8U,
  0x800516e1800c7219U, 0xbd6dba463e1b030cU, 0x3e1899eb3d62f8f0U, 0x800846ec8025a39fU,
  0x3e0dc2a3be2491d4U, 0x3e11f11f801a0219U, 0x3e33c3c882063908U, 0x1e2c833e4678a6U,
  0x3e484f1e3dcb8f91U, 0xbe379e14212da286U, 0xbde0087e001d425bU, 0xbd6900f78029abc1U,
  0x3e4615e6bd7ff6deU, 0xbe0ee3b2bdac5097U, 0xb3e0b80320255U, 0x3e3ce16a3e3b6f92U,
  0xbe1bf841bd96cf39U, 0x801a3151be19c3dfU, 0x3e4038423e3b049dU, 0xbd9b2696002d7efeU,
  0x8017dcabbe1e9b08U, 0x3e4945473e4a25a3U, 0xbe3605b63e249ff4U, 0x801354f48024a4b3U,
  0xbe17e9adbdac7274U, 0x8029a68a3e83d4d7U, 0xbc689d313b24c031U, 0xbe076b088010054dU,
  0x3e0266498006a771U, 0xbe0df5d73e807a4bU, 0x3e782afd3e606d20U, 0x3e27511cbe057051U,
  0x8016cdc10015676dU, 0x3d9debbcbe19848dU, 0xbe06ec14bdd61be1U, 0x8014ab1f8002410aU,
  0xbe0645f53e4aa694U, 0xbdf5ba540007f2f5U, 0xbde922c90012bcedU, 0x802511aabe0d7f8fU,
  0xbe0cefe9bd6fbd1eU, 0x3e757f3e20b73bf9U, 0x3e1a246700186b80U, 0x3d2389d10002e242U,
  0xbe0b5c0c3db23864U, 0x3e31f30f3d74bca0U, 0x800b8f2e002f2744U, 0xbe0bb026be201a33U,
  0x3e679b033dcbbe45U, 0x80254a023e4b7ff5U, 0xbe2301eabdf8cef3U, 0x3de30a1e800ec7ceU,
  0x802ee1873e437b16U, 0xbe0ecc80be21ab09U, 0x3e63f831bdf36a0dU, 0x1238c040016350aU,
  0x3e476bc73df62842U, 0x8016c16cbe2e2079U, 0xbd33e580bd916ce5U, 0x3e074b84801b8442U,
  0xbd90a9d7000c624aU, 0x3e399f4bbe32bf37U, 0xbe26caeabe1bbf9eU, 0xbdd765823e3d3055U,
  0x800579f0801ff8d3U, 0xbd8715c73e220394U, 0x3e015dbf3d8e4f85U, 0x8018e6b8000552cbU,
  0x3e014f20be1a3031U, 0x3e0f40a7000ba856U, 0x3e347d85801051fdU, 0x801a9fb23e4c3411U,
  0x3e2d6c853dddf03bU, 0xbe2ae2879ff41688U, 0xbdb429d780202edbU, 0xbd980c1f8010b591U,
  0x3e403ae9bd97937dU, 0xbe113385bd5ceaddU, 0x8006a5ee8025233cU, 0x3e26c90d3e3f088aU,
  0xbe239813bda0bb76U, 0x199598be0c3820U, 0x3e225ac13e4ddd6fU, 0xbd9833ee001a0a3eU,
  0x80276db8be138995U, 0x3e29a6873e3548b7U, 0xbe2586e83e18ada9U, 0x81a1e5b8001b1a57U,
  0x3e3bc7953e012b20U, 0x11e93be36dd2fU, 0xbd62dd44bd900108U, 0x3e15ea630020de2dU,
  0xbd62771c0003b11aU, 0x3e3b60c1be3064e9U, 0xbe2a6ec9be16e1b3U, 0xbdc5b51d3e1d16c6U,
  0x821e8800d765fU, 0xbd6832323e0562f1U, 0x3e1cbac33d9e6ee3U, 0x3b0168007465cU,
  0x3df882bdbe173078U, 0x3e0863900025ae6dU, 0x3e3636e10002f61fU, 0x800ad0aa3e4e8d0aU,
  0x3e3b4b363ddfed71U, 0xbe1f263f218c6e43U, 0xbdd854a38020d577U, 0xbd5906c30006c3d3U,
  0x3e44a0aebd859bbbU, 0xbdfc88b7bdb01282U, 0x801f9045802f6f32U, 0x3e2343793e4c3f15U,
  0xbe2b15b7bd9e2d3fU, 0x58061be0a76a3U, 0x3e319bcc3e531db4U, 0xbd858fac80156a58U,
  0x1d3457be11b31cU, 0x3e3dac2c3e42a756U, 0xbe1ee0593e234087U, 0x21aa3be0024c0c0U,
  0xbe16e3c5bdd93a9eU, 0x801886a63e8447ceU, 0xbd2c43933ad04ca5U, 0xbe07368f00026f00U,
  0x3dcdd6a9000a41f6U, 0xbdf444b13e858628U, 0x3e7eaf0d3e600d8aU, 0x3e20d8efbdfc6cf8U,
  0x8004b878800f0c7dU, 0x3db969fbbdfafe9aU, 0xbdcde486bdcb0664U, 0x4007f8015716cU,
  0xbde68c463e5b77d2U, 0xbdefd5300004e529U, 0xbdf4514a00145ec8U, 0x1aec01be181a30U,
  0xbe1d7030bd8d128aU, 0x3e74b81ea07fc3f9U, 0x3e160512002d0786U, 0x3d3728db80211436U,
  0xbe10ae5c3dc04c38U, 0x3e3d8d1a3d9e0aaaU, 0x802956d70002acd1U, 0xbe0f18b7be1e5c26U,
  0x3e56d0fa3db13858U, 0x800880b63e65d738U, 0xbe2aabeabe133dacU, 0x3dbd2907801c7ebeU,
  0xc5dba3e59df99U, 0xbe1f8f7dbe25a7bdU, 0x3e697e24bdfc6a09U, 0x8027ba918002ee2dU,
  0x3cbea8883d09458dU, 0x3d03cde13d125ae4U, 0x3ce4aa913d294e5eU, 0x3d0a336b3d33a1f1U,
  0x3d2be69c3d312738U, 0x3ce7a2133cd5ca9eU, 0x3d1488533d0cb0afU, 0x3d5b3fb03d284de0U,
  0x3d2063dd3cb92196U, 0x3ce0fe973cf61f16U, 0x3d006bf13d1cad46U, 0x3d21efa63d02e2a9U,
  0x3ae09c883d13da3aU, 0x3ce2525d3cd58833U, 0x3d1c697c3cdde671U, 0x3cfe966c3ced7e0eU,
  0x3cf698143d1211f0U, 0x3d351ed13d146052U, 0x3ce647903d0ccf21U, 0x3d334a373cc20eaeU,
  0x3d0a98153d134d9dU, 0x3cfb9b553d399d9cU, 0x3cf434973ce0e535U, 0x3d23f1293cf9a1faU,
  0x3d1d26d33d21125eU, 0x3cf208573d2269afU, 0x3d1deae53ccddc1dU, 0x3d149c9e3cedef58U,
  0x3cd13a883d22837aU, 0x3cfcf44f3d0dec3cU, 0x3cedc9fb3d0ff47eU, 0x3d3101313cdf6b5bU,
  0xbf2bc830bf31834aU, 0xbf28ad663f3cfbfbU, 0xbf27fa393f47e37fU, 0x3f352f733f3f968cU,
  0x3f39c4c93f437e18U, 0xbf2b95ffbf250c08U, 0xbf2e5bc3bf255d1cU, 0x3f475fa93f35d63cU,
  0x3f377472bf2b47aeU, 0xbf373948bf262658U, 0xbf2f3c753f41d22eU, 0x3f3b4144bf234b06U,
  0xbc317abb3f3cf53aU, 0xbf2e2f2dbf27bd48U, 0x3f3c0d4bbf267828U, 0xbf27dccfbf283115U,
  0xbf2ab4f83f2efd7aU, 0x3f462488bf31ccf4U, 0xbf29c36a3f447e36U, 0x3f39d1573f32ae3aU,
  0x3f334bf03f38172cU, 0xbf3333023f466653U, 0x3f37e5873f425d3fU, 0x3f3c1fd9bf2bafd1U,
  0x3f46ca8d3f3fefe4U, 0xbf2889033f47ffefU, 0x3f3c2d10bf2d0a76U, 0x3f2e5797bf2d6df7U,
  0xbf279d023f32b480U, 0xbf2db351bf175c76U, 0xbf2927703f331bb3U, 0x3f3a061cbf2be3cfU,
  0x3f2bd4633f318348U, 0x3f28b3c2bf3cfc0dU, 0x3f27f5c0bf47e397U, 0xbf352f91bf3f9636U,
  0xbf39c47dbf437de3U, 0x3f2b8da43f251434U, 0x3f2e68153f255b6aU, 0xbf475fcdbf35d4caU,
  0xbf37740b3f2b4796U, 0x3f373bce3f262923U, 0x3f2f47b0bf41d1f4U, 0xbf3b40e53f234b05U,
  0x3c317ab8bf3cf556U, 0x3f2e271e3f27d31aU, 0xbf3c0d7c3f26858aU, 0x3f27e3af3f282a0fU,
  0x3f2aac45bf2efcdaU, 0xbf4624ac3f31dbc8U, 0x3f29b1e5bf447e05U, 0xbf39d16dbf32adf9U,
  0xbf334b78bf381726U, 0x3f3330fdbf46669eU, 0xbf37e5b4bf425d4cU, 0xbf3c1f9a3f2bb0d9U,
  0xbf46ca86bf3ff039U, 0x3f288981bf47ffe7U, 0xbf3c2d0e3f2d0009U, 0xbf2e57f83f2d6cf7U,
  0x3f2795cebf32b4a6U, 0x3f2da87a3f175c7aU, 0x3f292301bf331a71U, 0xbf3a06a13f2befb6U,
  0x3cd8123cbced6f58U,
};


ai_handle g_network_weights_table[1 + 2] = {
  AI_HANDLE_PTR(AI_MAGIC_MARKER),
  AI_HANDLE_PTR(s_network_weights_array_u64),
  AI_HANDLE_PTR(AI_MAGIC_MARKER),
};

